ff09 0155 fee0 fe9b ff9e fe6a 011a 0130 01b1 ff79 
ff17 005e 0066 0091 01db fe20 0056 00e7 00a1 00d2 
0107 0259 00ca ff68 0182 fef9 ffd5 0146 ff42 0065 
fffa 0186 003a ffb0 0070 fe66 00e3 ffac 003f ff8d 
fee3 000b 0005 fff0 0029 ff42 ff10 ff39 fff2 ff8e 
005d 00e4 0101 00a0 023e fefa ff13 fec9 00e2 009d 
ffbe 0031 00e3 fefe 01d6 fdc6 00d1 0049 000e 0186 
0074 008b fedc 0000 0101 ff5e 009a 00b5 0182 00c0 
ff95 ffe2 0021 ffcc 005c fef2 ff91 00f8 ff71 008b 
005a 0109 fe50 0039 0200 fdf9 ffd6 ff85 ff38 ffb2 
018f 00a0 fe55 ff5a 013a fe0e 00cf ff23 00a9 0125 
ff93 0249 0097 ffc8 0040 fd9d 0140 0029 ff6c 00cc 
0118 00da ff4a ffe5 0095 fea6 ff76 00ea 0158 0025 
ff1d 00e9 0048 00a4 0077 0004 006a 00b2 01ae ff99 
0127 00f5 ffd9 ffda 0228 fedf ff8d ff6a ffb7 01bc 
0172 0167 ff4d ff61 0173 fef4 ff1b feb2 ff34 ff95 
0165 01ae ffa6 00b1 01e6 fdfc 0102 ffed 0105 ff7f 
00dd 0095 00c3 0023 024a ffd8 0077 0117 ffa4 0110 
00b4 00ef 00ba ffa1 0058 fea7 0100 fedf ff99 006e 
016b 0121 ffcf ffb1 ffe8 ffd0 ffd9 ff54 ff5d ff8e 
0180 0043 0064 ffee 0145 fe89 00e9 ffa2 00f0 01d1 
ffee 00bc 008a fe7a 01fd fee1 0023 fee8 ffa2 ff91 
ff9a 0094 ffbd 006b 0261 fdb3 0055 fea9 ffcd 0091 
013a 017c 0107 ff70 0022 fdfe 00bc ff38 01bf 0118 
008d 01dc 005f 0007 0024 fe13 00cb 00b6 ff0d 0109 
000a 007b fe5c fea9 ffe2 ffd9 ff6f fef2 ff4d ffd3 
ff4f 0029 00aa 0001 0057 fe11 000c fe9b 00d5 fff4 
ff51 0184 0031 ff71 009b ffe6 010b ffe7 ff94 016a 
0052 010f fe7f 0071 00c9 000b fff7 ff69 ffab 0175 
0183 004c 00af 00d1 0053 fe72 ffb6 0151 00bb ff3a 
fff0 014f febe ff26 0205 fe6f ff21 0147 0131 0175 
ff86 0063 febd 006a 00b3 fee5 006e ffbf ff2d ffcb 
ffd1 025e 001e ff01 014d fdff ff25 012f ff0f 0081 
ff24 0121 fee8 ffec 0168 fe9b ffd8 00e2 017b 0199 
002a 013c 0015 fe95 00e7 febd ff39 ffc5 ff12 ff5b 
ff1f 0145 fef1 ffb8 ffe7 fe59 00ae ff3b 009e fff3 
0083 025c 0064 fe7b ff38 fef6 00cb 0112 005e ffb2 
00a7 00c8 ff5c 0040 00af fd77 018b ff93 009c 007a 
0020 011c fe7f ff4a 014f ff50 0067 0101 ff9d 00e7 
0063 0029 fe6f 0051 ff45 fe66 ffec 0107 ffad ffb3 
ff93 0052 ffb6 fe77 0019 fe47 00d1 00c1 ff22 fff0 
ff27 0087 00a3 004b ff94 fd71 0012 ffaa 0176 00b7 
0005 01b4 ff66 00a8 ffa1 fe34 0111 feab ffbf 006e 
ff83 00a9 ff76 ff9b ff52 fdea 0092 fef1 00bd 0068 
015e 0111 ff4f ffb6 ffa8 fed2 00be ff11 009a 0137 
00d3 003b ff1c febe 007b feac 00dd ff68 0145 0039 
0132 015b ff62 0039 ffd4 fe8d 00a4 ff65 00c7 00e3 
ffc4 018d ff1e ff53 0001 0015 0179 ffd7 01b4 019b 
0021 00b8 0017 0019 00a1 fdc7 008b 0078 00c2 014d 
ff25 0227 fea6 003c 0027 fd9c 0182 00b7 006f ffe6 
0074 0024 0070 ff3b 006f ff94 00e4 00be 0083 00b5 
0179 0145 ff25 fe65 0040 fdb9 ff86 00bb 00da 010a 
00a5 0226 00a4 00a0 024a fe6c 0075 00fd ff69 0044 
018f 0032 fff4 ffc3 ffec fdd4 010a 0100 ff6d 00f6 
0018 0076 ff66 fef9 01cd fe62 fefb ff12 ff8e 0174 
016b 01f7 0030 0081 019c fd8c fff1 ff87 00a5 004a 
feee 00b0 00ef ff5c 0056 001c 0142 ff90 ffaa 01d4 
0171 00b9 ffd6 feca 00db fe89 fec3 ffb3 ff06 0154 
ff83 016d ff06 ffa0 016d feba 0058 0024 0129 01c7 
ffce ffd4 ff9a ffd1 00a4 ff36 fff3 ff77 0025 013f 
ff04 0074 ffb4 fedc 00da fddd ff52 00fe 0133 006d 
0002 01c6 00ad 007f 0207 ffcc ff3e ff9c 0027 0085 
00a5 004e ff14 009c 00f9 ffe2 000b fef1 0151 ff97 
017b 0024 fec3 0035 ffeb fe62 01c0 005e 013f 004f 
0151 0025 ff74 fe4a ffbc ff1e 0200 0100 ffc5 ff15 
008d 0061 fea0 ffc9 fffd ff5a 034a ff9a 008d 00e0 
fec5 ff4a ffbb fecc fe34 fe34 01ee 011f ff61 011f 
007a 006b 00ba fe27 fd19 ffba 0368 fe9e ff99 fff1 
ff93 01ac 012a ffeb fca7 ff63 02a5 00a8 00d7 0141 
ffb9 ffeb 015c ffec fcc2 ff26 04ec fec7 001b 00e2 
fefb 0233 febf ff04 fcaa fd94 02c5 feaf 0168 fed0 
fdde 0109 0162 0006 fe13 fe82 0306 0045 007d 016b 
ff0c 0021 01c3 000e fe6c fd69 0320 fffd 0000 0072 
fe1f 0012 0038 ff70 ff7a fda8 0308 ff41 0094 0142 
0065 0092 ff31 ff83 012d feda 036d feb5 fede ff0a 
fea8 ffc5 ff28 ff08 00af fdc0 03b2 003c fecb ffc7 
fe39 0093 fd9b fe14 fffd fe15 0356 0055 ffa5 00bc 
003d 0075 ff57 00c4 00bb fe2d 019c ff48 0001 ff37 
ff4e ffbb fef7 ff5a ffa1 fd4b 0116 ffc4 ff68 015d 
0116 00df 00c0 ff1f 01d9 fe01 016c ff7f 01ad 0058 
ff16 0181 00d9 fff8 0009 ff91 000a ffd8 00e0 ff5e 
ff7e 00cc 0030 00a9 0080 fe72 ffa8 00de ffb9 0083 
00c0 0187 ff18 fe77 00a1 ffd8 ff48 005b 00ee ff57 
0017 ffb4 fed8 0002 01f6 fe23 00bb fee3 ff12 0189 
0177 fff2 ff9a 009d ffc3 0020 0051 00ab 0165 ffa1 
ffe7 0173 003a 003a 0220 ff9a ff54 ff14 ffd0 ff21 
0002 020e fe7b 00a9 01c0 0003 0148 00b7 ffc3 fff3 
01a2 00c6 002b ff96 ffe8 ff16 ff69 0080 ff14 0039 
00a0 0247 fe94 ffa3 01bf fe81 ffa7 ffd6 ffc8 019f 
0062 00a0 fe7c ff84 01f4 fe78 ffb1 ff84 0199 ff71 
0178 ffd7 fefb fee8 ff8e feca 0190 fed0 017a 00a8 
014d fff9 0147 ffba 0037 fcce 014e 0070 014c 008d 
ffe3 010e 0252 fead fd13 fe9b 02cc ffeb ff22 003a 
fe0b 003b 03a9 0123 fd88 fe1d 0183 fed4 fffa ff5d 
fe3c ff48 0422 0058 fc64 fd62 0332 ff90 ffe9 005e 
fe4b fd43 059e 0310 fb49 fa41 0271 ffc4 ff93 0039 
fd62 fd50 0498 04d6 f910 fc43 02fd 0006 fe0b ff57 
ff0d ff92 0546 055c f6dd fbed 0579 fda5 fe45 ff8d 
fd75 ff39 01c1 0471 f847 fdb1 0402 ffb2 ff18 febb 
fe79 ff60 009e 03d0 fa01 fd75 03f3 fee9 fe0a fe43 
fdb1 fe8e 0074 01d7 facb fca0 02d9 fdb5 fd93 fe2e 
ff6a fe31 ff97 028b fc44 fd60 04c2 fe94 fe39 ffc7 
fca4 fd41 fd7f 0174 fee1 fd5c 05bd fe73 ffb7 ffbf 
fd28 fdf4 fea6 ff1b 0023 fde7 03e3 fff6 fd6e 00aa 
fda4 fe4c fe4b fe74 01fc ffa3 05d0 ff32 fe93 001d 
fcae ffd8 fc8e fcdf 01b3 ff78 04c4 005d ffa0 003d 
feff 0120 fdea ffb6 0140 feb3 054c 00e7 fec4 ff4e 
fe61 016f 0035 ff65 01c5 fdf9 0350 ffee ff5d 01ad 
ff43 017a 000e fff3 0072 fcf2 01c2 0120 fff5 ff36 
014d ffbd 00eb 0068 00b9 fe88 00c7 00fc 0123 0017 
0081 00e9 00a7 ff73 ffb7 fffd 0104 ffb2 ff28 ff46 
ffea 002f 00f7 0021 01fb ff80 0056 010e ff37 00d9 
0153 ffb4 0019 0078 014a ff14 0047 00ac 00e6 016e 
00b3 00f4 0051 ff41 0015 fd91 00dd 0116 0140 ff29 
0052 022e ff09 ffc8 0166 fdb2 0121 ff1d ffc2 00fb 
0107 0037 ffd2 ff04 0130 0000 0124 fffa 016b 0105 
00cd 00cc ff04 fffa 0224 fd9e 0054 000a fffd ff75 
fee4 0005 ffba 0245 00c7 fec4 014b ff58 ff9a 016f 
ff71 0070 006a 0272 ff99 fd1b 0053 00de 0003 00a2 
ffdd ff59 010e 013e ffbe fcef 01d4 ffed ff9c ff26 
ff33 fe9f 0367 043f ff12 fa73 ff88 fe67 ffb4 004d 
ff18 fc66 0798 049b fd11 f7f7 0159 fcf2 ffe3 0008 
fdc3 ff1a 0673 0562 fa87 f6e8 024e fcee ff3c ffd9 
ff22 ffeb 05b4 065c f940 fa37 ff4c fbf4 ff7f fdd4 
fc75 0174 0649 06d7 f846 fa19 ff84 fa81 ffca fc92 
fff2 005d 036b 062b f735 f840 fff3 fc48 0165 fb62 
fda2 015c 03a7 06aa f9a8 fbec ff08 fc18 019f f94f 
fe2a 0064 0026 043f fb76 fd10 ff7b f8ea 02c3 f671 
fdff fdc2 0070 0093 fb7d ffde ff85 f9c8 00c8 f80c 
fed0 fd9f 013e ffb0 fc6e ff14 01e2 fcea ffd9 f999 
fdaa fe15 018c 00fb fe54 0038 05bf fc9e fe81 fb02 
fe66 ff8f fdba ff1c 0033 ff20 03e9 fcc5 fd7c fbce 
feef 0224 fb43 fc73 02ad fcf0 064d fd2e ff90 fe8a 
fefd 02e9 fc52 f8f5 02d1 ffd2 0582 fe64 fd5e fef7 
ff86 025f f9d3 fb29 028a 0329 062c fe86 fca4 ff10 
ff17 0093 fb8b fa7a 026a 0076 045b ff81 fd94 007e 
fdf8 008b ff75 fe88 0096 00ad 00c4 001c ff34 014a 
ffb0 00c2 ffab fe72 0006 ffba 00ea ffc6 00ca 0052 
0039 ffb0 feec fe9b 00a5 ff67 ffa1 0137 01c4 ffab 
ff1f 0151 0088 00e5 012e ff2c 007c 0010 01f1 ff1d 
0009 01c3 fe8c ff43 0255 fe70 fec6 ff03 0132 017e 
ff0d ffec 00a4 006d 0235 ff1a ffd9 ff86 016e 0118 
ffdf 00e4 ff9d ffc9 0028 ffac ff1c 0148 0006 0107 
ff56 ffc9 ff55 002f 00c1 fd4c ffd4 ffb1 fffc 00eb 
0030 0258 fe3b 00bb 006e fd54 0042 fec2 ff3d 0144 
00a3 019a 0058 04c8 01b9 fcd5 0082 0024 005d ff6d 
ffff fff8 01fe 04a7 ffe2 fb2e 000e ff9d ff28 0000 
feab fde1 01dc 03f1 0057 fc4f ff1b ff95 fe23 fddd 
ff75 fafb 0404 044c fe7c fdab 002e fdcc fdf8 fe04 
feee f9ce 0617 0447 ff79 ff3e ff0e fb2b fda9 fb76 
0035 fc4d 060d 026a fc9d fea4 ffff fa5a fcd4 fae8 
ff4f ffd7 05fe 02eb fd48 fe2b fade f78a 0208 fa4b 
ff21 0167 04e4 036f f915 fe04 fd35 f558 04f3 f896 
01da 0236 05a8 0208 fa13 fc2a faf6 f616 033d f695 
0340 0124 059c 0157 fbcc fe35 fc65 f5a4 0269 f3d5 
02d8 ff7c 04eb 01a3 fe07 fd5b fce4 f3fb 0140 f35f 
02d4 fe9b 0694 015a ff17 fe16 fe02 f508 0141 f22a 
04b9 fd20 056e fe5b fef3 fef8 007f f3a7 0222 f5f1 
03c7 fd34 01e9 fde9 ff55 0171 01c2 f783 005b f7da 
0133 ff3a fe19 fd64 0018 0207 037a f7f8 0000 f988 
00b7 00c8 fda0 fbbc 0124 01dd 043e faf5 fe54 fb9c 
0016 05bc fce5 f7cf 049c 02fc 01c5 fbb6 ff20 faf6 
0010 03e1 f98e f77c 040e 0475 0139 feb2 fd7a fcc6 
ff39 0194 fa79 fa4e 073a 0499 ffba fd8e fb70 fc76 
fe8c 0180 fdec fe95 03c4 0363 fe17 fef1 fd25 fdb7 
ffb2 0112 004a fe90 00c2 011f fff4 ff5f 01a9 fed2 
fef3 ffaf 0021 004a 0111 fe71 0121 012b 00f6 ff6f 
ff3c 014a ff4f ff40 017d fe98 0033 ff9e 0098 00c9 
00f3 ffcf ffd9 fee3 00c0 fe32 ffd2 0018 018e ffcd 
ff57 0039 ffa3 ff64 01c1 ff9a fef3 ffd8 0197 ff83 
0066 00ff 0038 fff0 01d4 fed8 013a 001a 0042 ffd2 
000a 0025 0051 02c9 021d fe45 ff46 00f9 0028 012d 
ff83 ffcb 0059 056e 019d fac1 fe2c ff55 0054 fe8a 
fedb ffd6 fff6 06c5 0357 fb12 fd52 0137 ff92 fcdc 
ff26 0020 0387 059d 019d fa8f fe67 049f fe23 fc67 
0053 fcab 0334 0219 004d fd1f fd3e 0370 fcf1 f995 
fdc4 f81a 0245 050d fdab fd2e feb0 0388 fe8a f962 
fbda f6de 0206 0271 ff24 00b4 feea 02bb ff6a f91d 
ff8b f959 0438 03f8 fc7f 0287 fbb7 ffd8 fd8c fa08 
fe6e fdc2 02b1 0226 fb51 0106 fb68 fe2d 0076 fb5d 
025b fd6b 0328 0220 f6f6 fe88 fbb4 fbbd ff6e fe77 
0166 fd20 0422 04a8 f64d ffa9 fbe9 f9a8 ff09 00e1 
0162 ff5a 0276 0320 f58d fea8 fcb6 f7b7 006e 0537 
0384 fa1a 0442 0146 f5fc fcd9 fc5a fcb3 0165 03ba 
04d0 f9ad 028a 029a f992 fe42 fb68 fced 0108 0371 
02d3 f9db fef9 01fc fa04 fdb6 fc52 fcd3 0057 021e 
0435 fbe0 ffbb 0258 f988 017c fc79 fb35 ffd7 0105 
046e ff6d fe31 fe26 fdc6 02f0 fe8b fc4d 009c fef5 
02f2 fef2 fe5a 0096 fda8 0330 fccb faf7 021d fc95 
055a 0312 fd9e fdbe 008c 0060 fcd4 fca8 00a1 fa2c 
01d6 00e2 fa56 f883 06b1 0542 fbdf fb28 0197 f7b2 
0060 00b1 fa3d f893 0873 061f fb49 fd0b 0051 f9dc 
fc89 ffc4 fcee fc4f 0251 09ed fd60 fccb 0176 fb9b 
fcff fee2 fe88 ff43 0082 0639 fe7a ffeb 017d feb7 
0007 01b7 fe57 ffd8 021c ffe6 0034 0090 0168 ff6e 
fef8 0029 fe8c 0027 01c5 ff5e 0023 011a fffa ffd8 
ff90 00b6 fe99 fe76 0059 000d 004c fe8e 0027 0121 
00ee 0005 ffc6 ffe6 0002 fe9a ff42 00bc ff81 011e 
ff3c 01bf fec4 ff56 ffa4 fe50 ff7b 00d4 0043 001c 
ff3d 0070 fefa 0356 026f fcec ff1f 01ae 00a1 003c 
ff50 0034 005f 07e6 01bf f784 002e 032e feb3 fc76 
fe36 fee9 0020 05d2 0332 fa17 fe2f 03e6 fe11 fbdc 
005a fc53 02c9 068f fe85 fad8 fd52 060e fcc1 fa11 
fd19 fadd 0392 0147 fff8 fc2e ff6a 05ef ff09 f6cf 
fd72 f84b 02a9 0119 ff2d 01d7 fe47 0594 00f2 f909 
fe88 f63a 0258 00cb fdd1 0334 fc23 044f ff6b fb71 
fd6a f86e 01ba 00d5 fb9c 0357 fbb6 03bf fdc5 ff5f 
ff8e fc9d 01f6 019a f8ed 02aa fa8f 03a7 fd70 014a 
0293 fe69 ff97 02ea f602 fed5 f9f4 01fe fcb6 0380 
036b fe3a 017e 037e f717 feb8 fa3f fed9 fedd 0533 
0075 fb65 01e7 065c f636 fec4 fafe fe9c fcc0 0816 
028b f8f1 0074 0273 f598 fee8 fd08 ff06 ff2f 07fe 
01eb f88f ffe3 018b f631 fe7e f7bf 0363 ffe4 08bd 
0530 fa6a fb21 0211 f952 003f fb4f 029d ff3a 0276 
0560 fc42 fee8 0299 fac5 0161 f875 037a 00b2 02ae 
0237 ff1d 00ae 01ab fbbd 03be f7ea 022b ff48 0036 
023a fff5 fcd1 0381 fbc2 0346 f7d8 ff21 00b5 ff82 
017f 009c ff3a ff7a fd8d 0403 f75c fdfd 0310 fe7e 
02c1 fd4c fe25 fca7 038e 05cc f742 fe23 00fb f87d 
007d fb85 f8b0 f811 052c 09a6 f95f fcd6 0621 f92e 
fd88 fd36 fbcd f9c4 0318 0ae8 fde7 fca6 02da fa53 
fca4 fcfe ff6b ff30 007b 0915 fe16 ff8c fee3 fe50 
fe99 013b fee5 ff58 00ac 0318 fef0 fea0 fe70 ff43 
003e 006c 00c7 003b 01c0 fefb ffd5 ff71 ff20 ff47 
ff2b 0171 ff15 ffc4 0004 fd74 fef0 fe9a 006b 019a 
ffd6 002f ff02 fef3 0161 fd71 00bd 0048 0041 ffa9 
ff67 0236 0019 00c0 ffbb fd33 0149 012f 0137 00d9 
fe61 01e0 ff20 01e7 01a1 fd3c fed3 0117 fef6 fdde 
ff4e 0182 007c 05cc 01b5 f987 fea6 05ee 0041 fc6d 
fdfc ff12 0143 05f0 00a7 f8be fdb4 05b2 ffd0 f99b 
fe1d fcbf 0040 041d 0084 fa56 fb48 06c8 0095 f948 
fda4 fb20 00b0 00f7 fe2e fc77 fd70 0735 fe8d f8f8 
fd53 f69e 0350 fffb fbeb 01ee fc84 0488 ffec fa8c 
fe80 f442 0218 fe8a fdef 0189 fd00 02d8 028e fce9 
ff18 f6e6 01f8 0039 fe1c 02c7 fb04 039e 00c4 fe23 
00a9 fbca 0351 fed9 fbe6 042f fcc3 05af ffa7 ff95 
009c fce7 01f7 ff92 fa3a 018c fc2b 04d6 013a fe70 
008a ff41 020e 002b faae fcd0 f8bd 0190 004a 03f0 
ffe0 fe7b 0341 039c f59a fb7d f97d 01b1 fcaa 0786 
0278 0040 025c 0487 f495 fa65 f8a4 010b fcf5 05b3 
06b6 fc11 fee4 0278 f98b fd05 f80c 028e 004e 0383 
04c8 fde4 fdd4 013e f921 ff5d f576 0601 fde7 ffcb 
041e fd50 ffae 0406 fbda 0032 f3c4 03fb 0034 ff50 
02a9 fd42 ff52 0194 fcaf 001f f2f3 01c2 0136 fd17 
00f9 fc50 0016 0484 fdc0 04b4 f553 01e3 021b fc89 
0247 fb8d fefa 013b fc5e 0574 f3cb 00bf 019c fef4 
0145 f9a7 fd09 fe70 017d 08a7 f46c 000a 027c fb18 
0571 fb2f f9db f7e9 01ba 0b9e f8f8 fe23 0212 f8c5 
0081 fadc fa05 f89e 0131 1226 fb19 fdde 0314 fa65 
fbd4 fd03 fd8b fde7 0033 0d39 fd33 fcf3 ff9d fe03 
ff02 0141 0083 0014 0005 0456 ff7a fe54 0014 ff6a 
ff57 00c5 ff60 fe25 0162 ff1c feb5 ff9d 0108 ffec 
ffa6 0054 0038 004c ffd1 fe0b 00ce 004e 0194 009e 
ff43 0161 00d3 fe39 0180 ff4a fff5 0026 ff6a ffde 
002c 012c fff8 fe8a 011f fe28 012c 009f ff63 014d 
ff97 0052 fef7 00b5 0112 fe60 fdbf 0381 0002 ff7a 
fd4d 0083 0141 0408 ffe8 f960 fe84 0491 0007 fbcd 
fee4 ff2a 03b5 0533 fff2 f976 fd4d 051c 0170 fb41 
fdc9 feca 00df 020b fdc1 fe8b fd88 0281 00f4 fd4b 
fedf fc45 ff3e ff77 fcf4 fec5 fedd 029b 025c fd49 
fea5 f900 fe5c fcae fd19 014b ffed 0131 025a fe69 
0133 f78c fe73 fa9b fe89 0173 fca0 022c 0229 fe2c 
ff72 f732 fffc f8eb fd89 0227 fce5 02a8 02f9 00c8 
febc fcf1 fed1 f4ac fdbf 048a fcb2 047a 03ff 0090 
feaf fc18 fcf1 f4aa fe07 0173 fd06 0619 0257 ff32 
0188 00a5 febc fc95 fbcd fee5 fd21 0527 00f8 0190 
fff5 0290 0006 0655 f0f5 faae fc42 0591 faa0 043d 
0143 0533 0133 085f f3f8 f92b f7e0 067f f8cc 0237 
02ad 0392 01b6 070c fcdd f7fb f553 07b9 fc7b ff1d 
04ef fe84 ff0a 0421 fde0 fa7a f3d4 07d7 ff9d fe1e 
0742 fcae fe69 03ac fd6e fcf1 f381 0647 00e2 feb7 
04cd fb0b 00e9 02b8 ffc0 feef f3e8 059c 002d fc9d 
0308 fa16 fefa 0433 fdc9 0316 f591 0410 007b fe95 
ff05 f855 fde4 0185 fb52 0535 f787 01de 0272 fb86 
00ea f6c8 fd01 fc00 fe43 0955 f895 ff90 0155 fcc5 
044e f777 faa3 f7d9 fd73 0ca4 f91f fd13 0281 fadb 
0289 fa40 fa95 fb4f fbc3 12e4 f848 fbb8 019d fb9d 
fb76 ff4a ffae fdfa fd07 0f48 fc09 fce0 002e fd8d 
fed5 00f0 fe6f ffbb ff2f 02c2 fe9d ffab 015b fff1 
fed7 01ad ff11 fe23 0080 fe58 ff94 00f3 0034 009b 
00ae 0250 002c ff95 01aa fe80 ffcf 00d5 00ae 00bc 
fef1 fff1 ff52 0007 0211 ffed 0091 ffa6 ff37 ff18 
feee 0024 0019 fedf ff29 fdf6 015b 0188 ffb2 ff17 
fe38 ff91 002b 027b fe2a fdd9 0033 0307 ff4d fe60 
ffa3 ffde fe1a 01b4 ff5d fc97 ff38 0386 023a fc7f 
ff1f ff3e ff16 020d fd8e fc21 fd81 034e 01f4 fead 
fe72 fc7a ffa7 ff05 fd52 00df 0049 0073 0311 015e 
010f fc9f f822 faeb fedd 01cf 00a0 ffe9 05b0 00b3 
0055 fd94 f603 f61a fcf2 0392 0210 fe67 044d 0170 
ff9f fc08 f963 f197 ff73 0429 ff1f ff86 03c5 0345 
ff00 fe00 f942 f105 015c 0669 ff12 01a0 0525 01b9 
ff76 fbce f757 f064 0050 06fd ff0e 0269 03ed 043d 
feac fdf8 f636 f3ee 00e6 0524 fd20 0080 02b9 0137 
fed7 0234 f4d7 fcc5 fb36 0338 fe32 0425 ff42 fd13 
fcfc 0980 f9ac 0509 f043 fe09 fb02 0606 fdff fed3 
fcd3 0a48 fe0a 0680 fa67 f9c9 f93b 086d f8c7 fb42 
fcb9 04a3 fed0 0499 0122 f711 f838 09e6 f89a fba2 
0257 fd5e ff55 0524 0063 f645 f656 0726 fd37 004f 
0445 fac4 feff 03a0 ffb6 f761 f6b7 039f 0068 00d6 
05bd f933 ff35 0587 01d6 f63f f8c6 05a2 0101 ffa4 
0492 f948 fe49 047c fabe f81d fab6 0542 00ab 0067 
01ed f8b9 fd00 000b fc5f fb17 fc14 0348 0368 fd48 
033e f928 fbdb fc78 fd73 fdb4 fc23 01d3 0413 fd81 
07bb fa67 fa07 fa09 fc0a 012f fe87 fd42 057a fc65 
04fa fd83 fd52 fe36 fb71 0833 fd0e fe73 0233 fbce 
fe83 00e5 ff8f fe64 fd1e 0902 fdb3 fe41 0203 fd7a 
ff2a 01d7 ff33 ff89 ff91 008a fd9e fecc 00a9 fef6 
0075 01cb ffe8 fecd 000d ff7c 0024 0065 ff87 0143 
ff71 014f 0019 ffd0 01cd fe85 ffb8 013d 01c3 ffad 
00b8 01e7 ffcd ff52 019f fe62 fed9 fff5 ff42 0104 
ff81 01c0 fe8a 00c1 002a ffb4 ff47 0047 0166 fef1 
009e 0159 fde9 0058 0083 fee5 ff2a 0561 0085 fda1 
ff18 0036 fc96 0082 0096 fe1f fdfb 047a 01ce feaa 
feeb ff54 fa3f fd39 fd1c ff5f ff6f 0127 02a2 047a 
ff88 ff6b f552 f7b4 fea0 01c2 00a7 01ca 03fd 0401 
004c fd37 f12f f336 ff42 01fc 0054 00bd 05cc 0473 
01ac fddc efda f193 01a8 03e7 007c fefb 0612 0679 
ff64 fc75 eea9 f39c 041b 03d8 0095 00b5 0544 0225 
0026 fcd9 f059 f623 05dd 0314 007d 0283 0511 03bc 
fe92 f91a f0de f948 061c 04a6 016d 006e 02bf 0398 
ffe7 fbc4 ef01 fbdf 04e8 05bc ffc6 0030 01f4 fc97 
fccc 03b6 eb9b ffd5 f7b1 0561 ff8c 01bb 062c fb4f 
f897 0a09 ef96 03bc f1fa 001c fc1b 013f 05c5 fdc7 
f37e 0c98 f887 02a6 fe60 f86c f845 06e8 fcd4 fd8d 
f539 04f2 fc44 0287 0578 f851 f8cc 07c4 fb68 023b 
f8e1 fe77 fb84 0427 0192 f879 f974 04a0 fc7c 04cb 
ffc1 fe03 fe84 0592 fe57 f4b3 fbb7 04de fe35 030d 
0146 fb04 0089 0369 fcd3 eff9 fba1 035f 0011 04a4 
0280 fa9b fe4e 0232 fb20 eba6 fe35 04dc 03e4 05ed 
043c fc53 ff1b fe48 fe22 eb17 ff6f 001a 04b6 047a 
04e5 fe39 faa5 fd57 fdd7 ed4c 02d1 fefc 08bf 0240 
07ae ff5c fba1 fe04 fd97 f321 04ee fe83 06e2 009e 
04db 00d6 fdde ff46 fc99 faf1 ffab fcae 066b fdcf 
00af ffe1 ffe6 ff55 ff18 0004 0052 ff05 0369 fe69 
ff70 01f1 ffb0 0067 ffad 008d ff49 00e3 02c2 ff96 
ff0f 0117 ff58 fe4e ffa1 fdc2 ff51 00bd 0109 019e 
017d 0027 0067 003f 0184 ffdd ff95 0098 ff7d ffdf 
011b 0173 ff71 ff28 020b ff06 016b ff13 ff63 0016 
00c4 021a 000e ff38 00a4 ffb0 0060 00b3 018c 0138 
fef7 ffca ff1f ff4f 0047 fe35 00ea 02fa 01a9 fed1 
fe09 018f fc3f fde1 ffb2 fe72 ffa4 0526 0127 0255 
ff4c 0058 f62a fb00 feb4 011d ff9a 004c 00d1 0476 
028c 004c ed8f f6a0 feea 017e 00a4 fe42 02ba 04dd 
00ff fe02 eb84 f389 0559 033a 02ba ffc8 035a 0426 
009e fe0f ed02 f7ff 0567 0107 0051 ff9a 01e9 04e3 
fe41 fd3d ebcf fa06 06ac ff20 013f fed7 04d3 0645 
fffb f802 edec fd59 088f 0475 00c8 fcd1 000e 0129 
ffda f503 f058 ff50 0af5 07cb 015a fa57 018a ff0b 
ff8b fc38 f0e2 fe68 0a6b 0815 00f0 f472 00d9 fa47 
fbf4 03c9 eef0 00b6 fd00 04f5 fdbe eed5 0a20 01e3 
f25b 0968 efa5 03ef f94f fdb8 fbb9 f2c4 0748 0626 
efee 0861 f79a 0337 0207 fb8d fa99 ff03 0089 0401 
f192 0096 f93c 02db 05e1 f76c fe26 04aa ffc8 0574 
f718 fe28 fa54 0277 0242 f6d3 fd29 0485 ffc1 062a 
fc54 ff07 fc4d 01bf fe7a f90f fbd9 0255 fdd0 063c 
fd9e fc71 ffc2 fcc7 fe25 f6eb fbc5 013a febb 092b 
ff08 fc69 ffe5 fb72 fc5c f4be ff1b ff34 034d 08ba 
0270 fd9c fd75 f9af ff12 ee6b 0150 fec5 0594 06db 
05a4 fdac fc0b f8d9 ffb5 eb9c 03d6 fe55 071c 0145 
0826 fe4f f87a fcde fc13 eed3 0952 fd9d 063f ff4a 
05d1 004f fe65 fe9e fd6f f63e 0624 fdd0 03f2 fdfc 
ffee ffcc feb5 fe99 ffb3 ff36 ff58 ffd7 021d 00bb 
0060 012a ff37 fe71 021d fde4 ff48 fff2 0276 013b 
0044 0188 ff71 0052 0033 ff49 005b 0091 0010 009d 
ff27 0041 ffb2 00a3 00a3 fdab 00b7 ffd1 0016 ff86 
0134 011d ffd8 002a 0077 fed3 0091 0043 002b 00a9 
feef 0145 0011 ff6c 01f3 fef5 fea9 02a2 0054 febd 
fe6e 00f5 0036 ffe6 00a1 fe0f 0131 0251 0062 fffd 
ff2e fff0 fc6b fd2d 0249 fe92 fd42 013d 007a 03f6 
0145 ff1f f328 faac 029f ff4a 007a ffed fddb 04be 
0386 0072 efea f98e 0580 0185 01be ffc8 fc4a 054b 
0222 ff32 f053 f672 069e 01f2 0248 ff3f fd7e 039e 
00fa fd16 f115 fbfe 07fb ff69 fdfe fe06 fc9b 02fb 
fee4 f949 f5d3 fe3e 0864 0231 028a fb26 ff6d 0354 
0017 f3b2 f73c fe08 09d2 05a7 01ab f8ce fbc7 0119 
0166 f301 f98f fe48 0d85 0638 015c f0c4 ff27 fd3f 
fedc fc93 f976 0002 0aaf 03f0 00ed eb96 0168 fd1a 
f6f2 0304 f891 0262 fefa 01af fe38 e74c 083e 0514 
f24b 0a3d f8f7 04e4 fc28 fc34 fc37 f25c 048b 05f4 
ee93 07c7 f99a 00b0 045f f8ea 000e fe3b 0206 04a0 
f16b 0070 f8a1 020c 0371 f71e fe00 0116 00d1 0528 
f9a4 fe82 fb01 023a 044c fad1 fe7c 0074 ff11 05fc 
fc00 fb61 feb1 ff19 01a4 fc86 fb8d ff11 fee3 08d5 
fb37 f9e8 fca7 fb72 feca fe40 fd7b ff12 fe41 07bd 
fc92 fdb7 fdde f810 0057 fdcd 0041 ff43 0003 05f8 
ff7a fdcb fd67 fa0a 02c7 fa22 02d0 fbd0 fef8 0353 
0348 fe5c fccf fa59 0092 f6dc 05fb fe1a fff9 fc65 
06a6 ff08 fc84 fdc5 ff0f f372 0943 fdaa 012b fab6 
0717 fe81 fd21 fecc fe98 f806 06aa fee0 024d fbbe 
fe53 005b ffbc 009a 007b fcfe ff8a 0117 00d9 0055 
015f 0074 ffc3 ff5c 0117 ff1d fecf 00aa ffd5 ff0e 
fff0 007a fedc 00c0 0075 fe26 fecf ff22 01c6 ff20 
010a 00d8 ff23 00d2 01e6 feaf 00fa 009c ffbe ffc3 
ff54 01ad feba 0007 025f fd5f 0084 00bc 0041 01a7 
ff15 0046 0091 fe93 0096 000f 009f 0221 0093 0100 
fe2a 00ab feae ff9b 01a7 fe98 010e 00fa ff0a ff8d 
ff05 0153 fdf5 ffba 04ee fd76 fe61 024e feea 0324 
021c ffb8 f88a fde6 06e7 fc88 ff0d ffe7 fc45 023c 
0283 00cf f59f f929 097f ff60 02b8 fc8f f711 022c 
01e5 fd88 f715 f9d6 07c7 fe71 004b fd84 f73b 0187 
0044 fc37 fbcf fa9a 05ce ff30 0136 fbde f7c2 0017 
01dd f71a fde0 fd15 05e3 0267 02c1 f78e fa60 000a 
03d2 f333 fed7 fa8f 0847 042a 02e2 f4d0 fd1a ffc4 
01e7 f746 006f fbe3 0704 005d 05ba f070 0084 fcec 
fd5d fec9 ffd6 ffb6 055c 0023 0013 ead3 01bc fd78 
f824 0462 0017 009d 007a fe9b fb8f efd1 04d5 ff8f 
f11a 08dd fc62 ffa9 fdb9 fbb8 fe8c f86b 0556 004b 
f131 06b7 fc92 ff5a 0202 f9b8 fff5 ff08 02e9 0419 
f4a1 00d8 fd8d fd7d 047e fa53 00be 00fe fcff 0592 
fa0c f8e2 fb26 fe0f 0734 fa59 fda8 00ea ff45 057b 
fd7f f7e5 fe9b ff4e 0520 fb2c fd51 03ef fd0d 02e7 
fd87 fb14 fc4e fd92 058a fd4e ff30 04d1 fbc6 005d 
feb5 fc3c fe52 fdba 02e6 fd10 0292 0238 f913 0142 
00ae feb9 fba9 fb32 0082 fd45 0249 017e fab1 fe46 
03c6 fe4f fc6e fb97 015b fc23 053c 026b fa87 faa8 
060d 0000 fcca fd99 ffda f91c 0841 ffb8 fbbd fab1 
042f 0139 fe66 ffa6 013f f968 045f fe28 fd8e fcaf 
0087 ffb8 007c fef5 0207 fce6 fe37 ff4e 008c fef4 
0068 0077 0255 006d 0181 fdfd ffd9 0007 ff36 fffd 
0158 ffbb ffc6 ff76 001c ff23 00b4 ffb1 003c 0195 
0035 01c3 ff10 ff00 0172 fea1 ff8f 0055 ff89 000b 
0120 0092 ffdb fff0 00c4 fdd3 014f 008f 0062 ffb5 
ff15 019d 0088 fed3 004b fed6 ff4d 01e8 ff6d fea3 
000d 015c ff96 004a 0000 fe61 fdf6 01cd ff75 fea2 
001b 01ea 00be ffaa 038c ff87 fb40 00ea fe2c 017a 
043a 006d fe66 fb8e 03b6 fc22 fdda fc6f fbba 0138 
02e0 fd64 ff7e fa92 0661 fa0e 01b7 fdfa f767 01e6 
042d feeb ff2c f7d3 0502 fa29 0121 fc1a f732 ff5e 
025c fca1 0254 f9fe 065a fea0 0269 f823 f8fc ffd2 
02ab f7e2 01c2 fa14 03c5 0087 02f5 f62b f9f7 fc9f 
045f f680 02b8 fb67 024e 01fb 06a9 f468 fc93 fe41 
0080 fcc6 00a9 fc8e 02f8 014b 06e4 f0e3 ff47 003f 
fafe 010d 007b ffe2 01f4 00a2 ff98 f1a6 02e9 fec5 
f29f 0610 0210 032a ff6e fb9b fef1 f592 0502 fd87 
ef07 07ab 00cf 0058 00db f8da 006a f8b4 040c fcd7 
ee63 04b9 ff07 fd97 04a6 f6e2 026e fd44 0115 0327 
f583 ff71 fe9e fb1c 0889 fa9e ffa8 ff4f fe4f 06b2 
f9ca f5b4 fcd2 fd91 0628 fa25 fe99 047e fe6e 05d5 
fe2f f79f fab4 ff1c 049d fb56 ff40 095d fcad 033e 
fe73 fb44 fcb8 00d3 0302 ff6c fff8 07e9 f861 fc97 
0103 fac7 fbcd 01e7 feb0 fed5 0326 0681 f6e6 fc16 
01dc fe4e fd23 fff9 ffa0 fd8a 0373 05d9 f9d6 fa1d 
0229 fd93 fbce 01bc 002c fce3 0219 0439 faa7 f7c1 
0637 ffe6 fc35 fec6 00d1 fc4e 050e 0077 fae5 f944 
0328 ff55 ff3a fe47 ffca fe70 01c7 fe8a feda fd12 
fe57 018e 03d5 fda5 00a3 fe18 fef7 00a5 010c 0012 
012f 0063 0349 ff33 0035 ff8b fe37 ff05 0084 0149 
fedc 0001 0123 ff9b 00b5 ffff ff3f 00d2 0082 003d 
0089 ffe2 fff5 fee0 0248 fd9f 0127 feae 007c 0192 
012d ffce 00d3 00ae 0115 fefc feab 00c2 ff45 fff8 
0077 01c9 ff93 ffb6 0181 ffd8 ffc8 0008 01a0 0126 
ff18 0134 01a2 0135 01e2 fdb5 fff7 ff42 ff7f ff6c 
fe52 0231 02ad 018d 01b5 fdc6 fcf0 00a6 fe49 ffc2 
0355 ff96 04c8 fe75 ffa8 f950 fd2d fd7d fab0 006f 
030c fca2 052b fb67 0186 f882 02be fc2f f641 fddf 
0323 fa61 0469 f773 02d4 f5c4 025e fb65 fa13 ff5b 
01ed fa7a 03a1 f59b 04a1 f826 022a f8a5 fe60 028c 
043f f9e2 ffe7 f597 04ca f989 042f f6ac 010b fec8 
041a fd90 00dd f7a3 ff9a fd05 07f9 f503 0037 0234 
fde4 fe2b fffa fc44 fef0 fcbe 07ab f3f1 009c 0111 
f673 ffdf 0391 fe58 00ce fe28 0194 f8ff 039a feaa 
ef6a 0815 0096 0209 024a f994 ffd8 f94f 0389 fa8c 
ee8d 09d2 0114 fe7e 04f2 f853 0279 f99d 0001 fe9b 
f2d0 ff9b fff2 f91c 0811 f6bc 0191 0068 ffaa 01fe 
f96f fc05 fecd fb19 0887 fa8b fd90 ffaa fe39 0339 
fdc6 f3e6 fd88 ff99 0642 fede fc1e 0517 fae1 032e 
ffab f6b2 fd28 0128 0489 fd9e ff5b 0485 f995 006b 
ff53 f933 fd1a 0343 0041 0073 018c 0558 f830 fba9 
002c fb54 fc17 048b 0055 fee8 ffe3 064b f960 f885 
02bb fd26 fe91 0350 0275 fe60 fe86 03c9 f8ea f8c1 
0360 fe00 ffc8 024a 01d8 ff59 febe 007a f8c5 f9fb 
022c fecf 0012 0019 ffce fe6c 01fb ffa9 fec6 fa74 
0264 ffb2 032a fe1d fecf ff44 0129 ff7f fda2 fc55 
fed4 00a9 06b7 fecf fef7 fd80 fdf4 0088 fe84 0018 
0053 00bf 0251 00d0 ff8b feac fcc7 ff35 ffb8 ff4b 
0136 0186 0183 003f 00c7 feaf fe20 ffe4 ffe9 ff9d 
0106 008c ffd9 ffe1 0221 ffa4 0132 0028 ffdc ffa7 
0072 00c1 ff85 0004 0258 fea4 ffd9 fff7 0087 ff6b 
ffc6 023a ff6b 006e 0017 fefa 0160 0080 002e ff3e 
ffd6 0154 003b 037f fe7f fd6c fe3e ff89 0051 feff 
ffe2 ff6a 048c 020c ff07 ff45 fc23 ffdc fc8d fdc8 
0431 ff99 09a3 ff2d fc09 fdb4 fa5b febd fa60 fc1c 
038f fc29 0769 fc43 fec6 fe75 ff4a fb4f f9a9 fc13 
0284 f87f 02e2 f92d 0228 f875 02f6 f84a fd93 0011 
01c7 fc65 0415 f60b 05e1 f368 023c f9fd 0410 0104 
0228 fbeb 0281 f12b 0532 f42e 04ca fa5d 0369 01ba 
01d3 ff0f 0380 eef0 ff89 f5d9 080e f7ae 007d 0265 
ff05 ff6e 047f efb3 ff6a f8d4 09a1 f98b 035a 0203 
f4fb 0360 03b0 f2a9 0202 f601 03f0 fbf8 07f2 ff8c 
f05b 07d1 042e f63b 054a f38d 01d6 fd76 0226 ff6a 
f193 0841 0232 f7a7 0856 f494 0195 ff6e ffb8 ff44 
f74c fdf0 006e fbbf 0849 f9f5 00a0 fef0 fdc8 0329 
fe02 f6c8 0213 fe53 0731 fc5c fd75 fe39 fef0 00a8 
0096 f30d fe24 0283 01b7 ff15 015c 002f fc5c ffc5 
000c f790 0034 02b6 01bb 026e 015a 02aa fa2f fc55 
00f8 fc5d fe31 04e9 fc5b 01af 0110 00fb fb65 faec 
0204 fda6 003d 029c ff40 01a9 fea9 fe72 fb5f fb44 
0088 fdb8 0018 036f 0059 0116 fd0e fe1e fb3e f9e3 
0202 fe0a 00c9 064e fc08 0032 fff2 fcd3 fcdf f7df 
0014 ff76 03b7 0301 fd74 0067 0088 fc27 fd89 fa6d 
01fe fe29 08e5 fced fe9e 009c fee1 fdf7 fd3f fc79 
0091 006b 0882 fe4d feaf ff51 fba8 ff51 fe17 002a 
0020 01a7 02ff ff40 0110 fe26 fed6 ffff 00f0 001e 
ffbd 007f 0105 ff9d 003e fe2b ff73 ff79 013e 00dd 
000e 0066 ff54 0019 ff98 ffe0 012f fed0 ff99 01ae 
ff49 fffb fe7f 00a9 01e7 ff56 0121 010c 0049 0148 
015c 005e fedb 0034 028b fde7 012e 008d 000d 01a4 
fe7d 0112 0027 063e ff0a ff56 fe23 fec5 fff5 fdf8 
ff17 ff70 0500 047f fc98 004d fb7d fd4b fb4d fe2d 
01d7 fde5 0879 0266 fae3 011d f946 fcec fd64 fb28 
0238 f8a7 0764 ffc4 fba6 0398 fba1 f8ea fc7b f8ba 
0115 fa32 0522 fe65 fe16 0088 0042 f7e6 008f fa39 
023d feb0 038e f9c5 0107 f752 0301 f745 0483 fb7d 
02fd ff9f 030b f1de ff5c f537 020f f8f7 0526 fe7e 
04a2 ff78 045c f04c fc74 f410 0620 f66f 0508 00f5 
001d 00b0 0633 f001 fb96 f34a 069f f948 0512 027d 
f7b8 03c0 0877 ed0a ff61 f617 0769 fc6c 02be fb34 
f31b 0569 06ba eee9 0381 f95c 03e3 ff07 005d fc0e 
f71f 04b9 043b f45b 0343 fb65 0139 ff34 fcf7 fdb7 
fd26 facd 0172 fa72 0466 fbc3 0207 fdfc fe72 0198 
008b f88e 027a 0411 029a fe16 031b fc69 fb77 fe8f 
00e5 f9dd 006c 02f1 fd82 0123 ffec fcb5 fb32 fd5a 
01c5 f874 0104 047d fbf7 ff89 02c0 fc98 fceb fafe 
ffaf fad9 000b 0500 fa5e 00a1 01c3 fc51 fb7a fc3e 
ffb7 fc69 016b 0278 fb36 0108 00c9 facc fd9e fb49 
01a2 fdd6 019f 04d2 fb7e 0091 0093 f931 fdb3 fb31 
00c5 fcd0 04d1 035e f8f0 ffb8 0086 f9f1 fe81 fa83 
00b3 fc9a 070d 01ed fdb4 0192 fe95 fb75 fcd2 facb 
0193 fdf4 0bd6 fb24 fe5c 03bb fcca fdb2 fdda faec 
ffa0 011d 07a9 ffec ffba feb9 fd34 0023 fe9d 00af 
00f2 0224 00aa ff1e 008e ffa0 fef8 fee8 004e ff68 
ff7c 0243 fff4 008d 0012 fde0 00b0 fe99 0196 00ce 
0143 fffd 0091 0002 01be ffcc ff62 ff21 ffdd ff14 
ff9c 0041 fe52 fe41 0232 ff83 feeb 0009 01c3 0004 
0028 016a 001e 006f 00f8 ff31 0128 0097 000e ff0a 
ff21 01b6 fee2 0831 ff3a fef7 feed fff0 fc79 ff06 
fddb 002c 0486 0579 fd0b 030c fc60 fcf9 fbaa fd67 
0041 fc12 0546 05eb fa32 03af f926 fb50 fe23 fc2e 
0313 f837 061a 0378 f820 0607 f921 f6e6 fe79 f890 
030c fb30 064c 02cc f749 020c fce4 f55c 01fe f888 
01d4 fdca 03cb fdcd f55d 0272 01a0 f70d 0194 f93c 
03d4 fed7 04f1 f990 f6c4 ff9a 032f f5b5 02e6 f8c4 
07f0 fd25 04c2 f9ac f4fc fb31 0536 f75d 0113 f7c0 
03f5 00a2 0557 f7d0 f57b fa40 08b4 f8cd 002a f7a9 
fea1 001e 04f6 f60b f6b8 fdd3 07aa fb7e 0053 f7fa 
fbc2 0549 0463 f4cf fb22 00dd 0426 0181 fae4 f9a0 
fbe3 0198 02ef f93b feb1 0014 02d6 0166 fa85 fca9 
0035 fb2e 00b4 fe32 ffae 0154 03df febb ff08 fdb6 
fef1 fc88 00cc 02fe fddb ffb8 0162 fe54 fe04 fcfb 
ffff fc54 023d 040a fb81 00b4 022b fa03 fbfd fcd9 
ff71 fc05 018e 0758 fa57 000f 02e3 f7e8 fdaa fc1e 
fdf0 fc40 0332 0531 fa5c 01aa 02fe f784 fee5 fd33 
0020 fcbc 0081 052c fbc8 ff5b 0270 f904 fef1 fbc7 
01b4 fb87 03ac 0471 faaf 0098 0231 f670 fe50 fa07 
00f2 fc5e 0461 0164 f822 0161 ffcf f8b5 ff14 fbc0 
0197 ff9b 0871 0078 fb11 01c8 ffef facb fe00 fd5d 
0163 011f 09dc fdc0 fe57 0220 fe45 fdcc fd55 fed7 
ff76 ff90 04b6 fedd 0088 fdd5 ff40 ff6a fde7 ff16 
0106 01ac 0030 ffc7 ffad ff54 0066 ffcc 0166 0063 
0095 0005 fe8c 000c 00a5 fdf4 000a 0082 0144 01d4 
ff48 005f ff4f fe3c 0168 fdc1 012a ff49 0003 ffb5 
0130 021a 0007 fefb 0117 fd90 007c fee1 ffc6 0131 
ff06 ffd1 fe2c ffc8 0040 ff84 ff2c 0023 0143 ff24 
ff64 021c fe74 0736 ff14 fea6 fe3a ffd1 fcf9 0016 
febe 00d3 04be 085d fcaf ffa3 fc5e fe99 fc85 ff5f 
ffde fe3b 03a1 0594 fa31 03b1 fc39 fb89 fdca fc66 
01a3 fdff 052f 0345 f6d2 0363 fb3d f900 0020 f94e 
01c4 fcd2 04cd 01ce f2ee 0271 faa4 f8ad 0220 f576 
02f2 0083 07a2 0281 f233 0640 fddb f884 fe94 f5d1 
0346 ffdf 0442 00e9 f15c 03c4 ff98 f7a9 0015 f29e 
06a4 fd78 0419 ffd4 f3e7 0269 03d4 f9e5 fe5a f2ff 
04cb fed6 0492 fe17 f58f 03f7 0211 fb75 faef f711 
01f0 ff03 03ab fb4d f784 02a7 054b ff2d fe43 f731 
ff55 fea8 00e4 fd32 f9fe 0296 06b4 ffcc fcba fb0c 
fe0f 0063 00b5 0003 fe2e ff13 07be 00ba fb78 fcc7 
ffe6 fdea ffec fee1 fe65 ffe6 05e8 fb97 fda9 ff4c 
fdc5 0058 00d4 0300 fcc4 0138 03ce faba fc57 fc4d 
fd96 ffd6 0037 0343 fe06 0043 00e6 f900 fc72 fe1d 
fe43 ff27 0209 0526 fbf9 0270 051e f5d8 fe54 fb1e 
ff44 fbd2 0436 0283 fa49 01fb 01df f7de fdb1 fe10 
ff3e fccf 0517 0534 fcdc 01c9 01ef f6c2 000b fd92 
0113 fd4b 0588 01e9 fccd 011b ff74 f7d1 ff76 fcb6 
ffe8 fe22 076d ff80 fa1e 0354 fcbe f8ee 007b fdbd 
fe25 ffcc 0a3c fe24 fcf9 038c ff7b fca2 fea1 fff9 
ffa5 00ed 064c fddf 0060 0015 fe77 ff02 fd17 01c3 
00b0 0220 024d fff8 0012 fdb0 feac fef7 ff96 0190 
0011 0268 00b8 ff27 01a2 fe78 fe96 00d9 0159 00f8 
0085 0182 00d6 0075 01d5 ffee 0151 00c0 ff35 00dc 
0128 013f fedb 0099 0010 fd81 ff8d ff00 00fe 0096 
0094 01c8 fef5 0057 01f8 fefc 00bc fec3 ff57 fffd 
0064 0096 ff2f 00cd 0085 feb4 0153 fffb ffce ff65 
0046 00f2 0061 0440 ff52 feaf 001a fdcc fd30 00cf 
fd8d 010a 00db 065d ffb4 ffc8 fd7e fcae fadf fe45 
0041 017d 028a 055c fd10 ffaa fa27 fae6 fdd4 fcc6 
02e9 00ea 03a2 03d4 f866 000c fac9 fb71 0137 f99a 
02ac 00f7 04b8 03be f682 0188 fab1 fa3b 029f f7ac 
02d5 ff52 03ba 0230 f759 0708 fcdf fb8d 008d f7c0 
02c7 fdd0 03a5 00e5 f6d5 037f fe87 fb3d ffa5 f64a 
04a2 ff2f 0171 003b f82a 041e 0323 fac4 fde9 f61c 
05de fcbd 038f fe36 f9df 0297 0394 fcbf fbd4 f91d 
04d5 fb42 ff5d 0129 fb79 034f 05da fdab fd05 f985 
0277 fd02 fec9 00d4 fb57 00c5 0692 0086 0016 fc5c 
fe2c ffe7 fe98 0033 fbd4 027f 0585 ff88 00b3 fc0e 
feca ffd1 fef3 ffa7 fe36 ff84 0574 fe76 fdbc fcc8 
003e 0348 01e7 0106 fc7a ffd1 03a4 fa67 fc14 fc66 
fdb4 010d 032d 02b5 fe5b 0070 03ee fa7f ff21 faab 
fe70 ffb1 02dc 031b ff1d 0164 0342 f70b ff47 f945 
fcf2 fe32 0377 01c2 ff80 0155 012c f7a6 ffc3 fa19 
ffff fcd9 02c8 01a4 fe30 02d2 fdec f72c fed4 fd81 
ff28 fbf0 06e5 fdaa fdf9 0420 fd3a f9a5 ff97 ff77 
fec4 fd64 0755 fea4 fcad 02ff fcc0 f8f7 0072 fe98 
fee2 ffe4 0930 fce7 ff8f 029d fdac fe1b fd36 008e 
00a6 ff61 03b0 fe12 0118 ff96 ff5f ff1c fe55 01ec 
ff14 007c 0256 ffd6 ff35 fec6 0021 0018 0120 00ee 
0059 0025 00ce 00c5 012c ff4e 00f9 fffc 000a 0021 
ff0c 01b3 00a6 ff19 01ec ff54 ff94 febc 012d 0032 
014b 0176 010a 004f 00f1 ff01 0000 005c ff9b ff88 
ff9c 025a ffb6 fff4 013d 0005 ff89 febb 017b 0182 
fec9 ffc3 fece 00c4 0243 fe11 ff6a fddc 00a7 00f7 
fe23 01d9 006d 0345 ffdc ff51 0022 fe2c 0013 000d 
ff26 02b4 012f 041f ff65 0059 fea1 ffa9 fa9b fe5d 
ffdb 04c1 02c3 0566 ff0b ffef fdff fe94 fadf fbb9 
0146 037e 00cd 0553 fc1c fbd3 fabe fea0 00bf fa63 
0079 037b 01d1 01d4 f98e fd7a faeb fe76 fe05 f80b 
01b0 ff70 02e0 0164 f98b 022d fa0a fe32 ff1d fa8b 
0399 fe6f 00ba 00ed fadf 02e5 fb13 feab fe39 fb4a 
03b3 fc96 02a8 016b fb91 016c fe1b fde1 01ab fa87 
02fb fad5 017e 01b6 fca6 0380 fe06 fc8a 012c fb4a 
040a f7ed feba 0157 fc19 0307 0161 fd5d 0437 fc15 
04f9 f8d5 fb99 fdd9 fc21 05ba 00c0 fdbf 0426 fb49 
0260 ff51 fc88 00b6 fbfc 0261 ff85 ffc8 04c4 fba7 
01a2 011e fd23 ff20 fda6 fefa ff0f ff33 0159 f998 
009d 0590 fd73 ffee feb4 ff49 00b7 fd2b fe19 fa4a 
ff8a 0699 0059 ffd7 fdc4 00da 0028 face fecd fa48 
feea 0221 04dd ff05 00aa ffdc fc83 fa49 01ec f97f 
fdba ff4f 047d 00bf 040f 02b3 fbb3 f8b5 fdd1 fb83 
ff2e fbbf 05be ff37 02c7 03f8 fab6 f8f3 fcaa fd26 
fced fd5d 05f0 fd57 0209 02ca fd4e f9e7 ff31 ff22 
fec2 fe4c 0485 fd7c 0066 014a fc9d fa79 008b 01b0 
ffda fe8e 0507 fe8c 0031 00bf ffe9 fda6 ff92 02d0 
0028 008e 0166 fed0 00ff ffb8 ffce fdfe ff10 0177 
0120 ffa7 019a fdf5 0208 ff50 00e0 0099 0133 019d 
0196 000c ff54 ffcc 018a ffcf 0056 006b ff67 01aa 
00d4 01b0 fee3 ff04 0079 ffe7 ff35 fec0 00aa 018f 
016d fffe feb9 0081 0195 fe30 ff76 014b 00f0 0198 
0192 022f feb5 0021 013f fd63 0069 0026 ffdc 018c 
017d 0063 00eb fee3 0190 fd70 ffe0 fef7 0122 006c 
fe72 018b fec8 01a6 01e8 fe7b 0081 fecd ff4e fefb 
006e 0101 0093 03a5 0113 ff44 fef0 0003 fc69 fe91 
fe3c 05e6 fcf4 0484 ff58 fe18 feeb 00f5 f7cd fd10 
ff29 03e7 fe31 036a fd75 ffc4 fd9a 0382 f986 fc65 
fff2 015b faa6 044b fc14 fe71 fac2 044f fbdb fcb1 
00d5 ffd2 fbcd 010f fbc9 0077 f8db 0334 fe2c fe6b 
0441 fe4a fbb1 0047 fe0c 008e f8ec fe35 ff52 fffc 
038b fe5e ff95 ffc9 fc66 01c5 f688 0025 01c3 fdc4 
0609 fde4 0013 0087 fe60 0254 f6b9 fc7d 01e5 fc44 
0562 fade fefe ff5a fb18 0285 f697 fc49 0630 fba4 
044c fbf6 faea ff66 fc9d ff9a fae4 ffa2 07dc fb0a 
02eb fc9d f8df 0040 ff3b 01cb fa3b 0075 06dc fa5b 
003f 01eb fa69 ffee fcde 01ee fad8 0107 03e9 f98c 
0036 07b1 fb89 ffa9 fefc 014c f6ca fe0d 01af f7db 
ff48 06c4 fbde 0012 00d3 002e f869 fdaa 014f fa24 
fe65 02d7 00d2 0136 030e ff77 f915 fb5a 01a8 fbff 
fb6c fe31 011b fec3 0299 ff69 fba5 fbc4 03c5 002d 
fd4c fe20 0189 ff3e 03d1 fec2 fe4a f9b0 037b 01f6 
fcbd fe95 03cc fde7 ff69 00f9 fc8f fa4d 001f 020e 
ffc4 ff49 01fd fd34 fdf3 003a fdeb fdc9 00df 0364 
febc 0020 004a ff79 fea7 ff50 fed5 fe1c ffb5 055f 
ff94 009a ffdd fed4 01ac ff6e 0030 ff36 0001 01a3 
ffa0 012c 00e8 0018 014b fede ff28 ff9b 002b 0096 
ffe5 005a 004d 00be 0113 fe6c 00a7 00e0 007e 0150 
0175 01df feae fe9b 0063 ffad 00e4 ff7f ffa6 001c 
feea 0065 fe92 ff81 01dc fef1 00cd 0069 0055 0152 
ffd1 01da 00c9 fecd 0092 fe1c 0021 00c8 002b ff49 
008b 0107 0025 fee0 0211 fe26 ff2f ffdb 0109 0005 
00f9 ffe2 ff20 00c5 0125 ff3c 0158 ff53 ff65 fed7 
ffc3 0094 ff03 0219 01b9 ff43 00f6 0134 fd46 008c 
fe03 01b4 fd2c 03fd 00d3 fe80 0000 028b faca ffe6 
ff25 0276 fad9 0699 ff79 ffb7 ffd5 06b6 f8a6 0017 
fcfa ff52 f905 058b fd9c fe81 fe23 05d7 fb5d 020f 
fe66 fa69 f8d3 0496 fe23 ff5d fe2d 0595 fe9a 0114 
ff07 fa40 f715 042d fd19 02b4 fc48 0405 ffa9 027e 
fd5d f6b9 f984 041b fe1b ffd2 fc6c 041f ff89 fecb 
fef0 f8b5 facc 053a feac 01ac fa76 026b 0395 fdcc 
0250 f91f fafb 0595 fd66 0049 faf4 01c9 0252 fe13 
027c f91a fa2f 02d4 fb81 02d2 f9d6 0193 00eb fc30 
ffe4 f99c fa09 0414 fc62 01dc f944 0274 02c0 fbfa 
ff8a fc26 fa30 02f9 fbcb 0205 f944 030e 0663 fb99 
fed7 fc3f f90c 01c4 fe7c 00fe face 01ee 0683 fd8f 
fbf4 001a faed fd72 fe36 fe72 fb05 01ed 03a8 00ad 
fda1 0138 fc18 fb2a 0059 0028 fce8 fec9 06cf 022e 
fd14 ff6f fd33 fbfa ff6c fe8d fcf8 fca2 0557 02d8 
fc05 0027 fca3 fd0c ff93 fe1d fe82 fe52 0284 04b2 
fe47 017f fe72 fd17 fec5 ff54 fe6d fc47 00c2 0582 
0098 0116 ff7b ffeb 0089 009b fe05 fcd9 ffde 0546 
ff60 0122 ff44 fe57 001d ff20 0086 fd4b 0219 0486 
010d 01dd fe62 ff0f 016f ff07 014e fe35 0095 01b6 
ff21 00ff 00ff fef3 00cc ff5e fefa 005e ff81 ff63 
ff42 0212 ff41 fe99 0033 fe11 feed fee7 00dc ffda 
ffce ffe7 0038 fe9b 0023 ffdc 00c0 00eb 0058 014f 
ff1d 019a feec ff00 0031 fd9b 0005 004c ff87 ffe7 
ff03 019a ff2a ff05 00ca fecb 0106 fedb 00c6 007c 
006e 000d 00e1 fece 00c1 fecd 0135 011e 007b 0065 
fee9 01fd fdd4 ff17 ffda 003c ffac fff3 01a9 fff6 
00b8 016b fffe ff23 01c0 fdfe 005b fffc ff16 012f 
fedd 0161 ff23 0163 feb2 fddb 0035 03ad fd54 007b 
ffee 00c5 fd4a 015c ff6a ff4d 002e 03fa fc1f 03e3 
ff8f ff5c fa21 015a fd56 fdf5 00d7 048d fb37 045a 
fdbc fd86 fa4b 03ab fc7e fe54 ff30 041c fb79 06cd 
fd21 fb97 fae4 03bd fa7f fece 0019 06cd fd11 0526 
fb4a fb89 f934 04fb fb2e 00a0 fe44 0446 fdb4 02ae 
fb39 fa70 f9cf 04e4 f7bd 00aa ffda 07b7 fb51 0262 
fa84 fa85 fcb6 04db f7f3 00e3 ff05 061e fcbe 024a 
f9d1 f875 fd0b 03aa f924 0417 fee2 041c fbfb 0319 
fa02 fb1b fa4f 0281 f9a6 0103 feb7 0327 fe5f 0169 
fbe3 fa31 fad5 009e f83c ff59 fdc9 05e3 008a 02c1 
fcec fbd6 fc71 fd6b f96c fee7 fdce 04e0 0278 0645 
fc01 fe6b fe43 fdde f75b ff16 febc 0273 0276 0831 
fc7f 000a fe5f fd37 f8b5 fe32 0097 0198 0329 0882 
fddd 0056 fdbb fc9b fb9d fc02 fea9 0017 010c 06b9 
fe31 005e ff26 fe4d fc06 fe01 00d5 007f ffa1 097b 
fd49 017f fe78 ff29 fcc4 fda3 fe6a fdb9 00dd 0774 
005a 01da ff76 fe30 fff3 fe57 012f ff42 ff73 0417 
ff2a 008b ff9b 0054 ff6d fe68 008e ff74 0047 025c 
ffc0 0113 009c ff8a 00fe ff06 004a 0137 0143 ffed 
ff0c 00c8 fe4b fed3 0145 febd ffbd 0103 01a4 0161 
ff61 017a 00a1 ff08 00b5 fd6f fff6 0013 00c3 01bc 
00eb ffdc ff2e ff8d 0105 ffaa 010b 00d7 012d ffc9 
ff48 0076 ff99 00d8 0251 ff0a ff8e 00ed ffa6 01ca 
fffd 0235 fe50 ff64 01cf fd61 ff05 0060 004f 0106 
000f 00f6 00a7 ffb1 0100 fe3d ff2b 0131 00b6 ffe3 
018f 021b ff96 00e7 01c1 fe7c 006d 006a ff26 ffd5 
0173 0109 006e fe32 0110 fd64 ff84 feb1 007f 00fd 
005c 00e9 0040 ffb7 ff8e fff7 fef3 0119 ffd9 0047 
00da 01a1 007c 0091 fec6 fd7e 0053 0033 ffb5 0144 
ff16 00e8 002f ff86 ff3e feb1 ffd1 0042 0045 0377 
fe72 01bd ff70 fecd fe9f fdfb ffa8 0113 fe7a 04ba 
fda7 ff5b fee6 ff89 fd67 fd18 00e2 ff6a ffcc 0582 
fdc5 00e7 fec8 ff4f fa92 fd00 fe8d 02f8 ffd0 05a9 
ff73 ff56 0038 ffe5 fb99 fd2c 0014 0319 ff9f 0552 
fe05 007f 007b ff34 f94e feab ffd4 004a fd8a 0783 
fdd4 fdde ff68 003d fb1b ff32 00e0 0317 fdfb 074e 
ff71 feb2 0095 fef5 f838 ff38 ffa8 03fc fe97 069e 
fe89 ffcd fecc ff20 f93c ff07 00af 03f2 ffe7 0512 
ff58 ff83 0056 fda1 fa9b 0029 00c3 029b 00a5 046b 
ffc5 01f1 002a ff19 f9bf fdcf fec0 04a4 ff91 0467 
0054 01da fe82 fde7 fb03 fe3d fff9 0462 ff7e 054d 
ff0d fffe fe3b ffab fdc0 fd89 fec1 014e fea5 045b 
fec3 0077 fe51 ff6d fefe ff66 fee4 0058 011b 033e 
ff46 0055 fe60 ff47 00c7 ff28 00ec ffd1 0157 0386 
00fd ffa3 ffe6 fea2 0131 fdd2 0073 ff55 ffd4 ff74 
fed3 0235 ff3b 00e1 0238 fe19 ffb2 ff49 ff7e 00e6 
0178 ffcb ff73 ffcf 01d8 ff09 ffdd fee8 ffa0 ff85 
ffbd 011a 007b fefb 000b fee8 ffb3 0034 ff39 0136 
000b 01ef ff4b ff8b 01b8 fdfd 00e7 0064 014c ff4b 
0054 ffad ff43 00cd 0151 ff0a 00c6 fefd 00c7 00b6 
001b 0110 ff54 ffd3 00c8 fe26 00ec 00e2 00af ff85 
fef1 020a fecf 00a1 0107 fe68 002b fed2 01ae ffd8 
fed8 0128 fedc fe89 0036 ff1f ffd7 fe8b ffd3 ff61 
0141 00e2 fe9b 0075 00c9 ffff ffeb ff3b 0131 0141 
ff58 ffc9 fe60 ff78 0063 ff2a 0089 ff02 00d3 0151 
0108 00e7 001b 001d 0201 ffe8 fea4 000a 00e4 ff56 
00fb 006a 0051 fe79 0086 ff45 ffb2 ff4d 01ab 0079 
0126 0202 ff07 fee9 fff6 fde3 ff22 ff47 0117 0076 
0005 ffe1 009d 0017 ffe0 fdf1 006c 012c ff9b 000e 
010d 0136 ff9e ff08 00d5 fe10 ff90 ff92 0198 01b1 
0007 0258 0073 fff5 01fb fe3f 0047 005e 00f1 0000 
ff31 ffcc fec1 00c1 ff80 ff2f 010e 00b1 ff7f 0076 
ff0f 00dd fe8f ffaa fead fea2 0063 ffda feff 00bb 
00cf 0087 0080 003a 0051 fe96 ffd4 023f 0140 ff8c 
00d5 ffdf ffaf 0037 ffa9 fd94 005c 00a0 ff30 0230 
fec0 024c ffcf ff80 006f fdc0 0019 0083 fff8 0125 
007a ffe6 0053 ff0e 00ad ff12 ffb4 021b 01ba fff5 
fec4 00ca fe59 ff4b 0081 fe98 ffef 01f1 0142 ff53 
ff88 ffc9 0050 0004 ffbe ff2c 0131 027b ff43 00c4 
0074 024c 0065 feab ff22 fff1 003c 0090 011a 00de 
012f ffe7 fe68 fec3 000d fd9e fec2 003c 0060 01a4 
0059 01bd 0014 0016 014b ff1e 00e4 ffff 0185 00c8 
012a 0149 ffad fee2 0182 fea5 00a7 0080 ff4b ffa5 
0123 003d ffbd 00d4 0122 0019 004b feb6 0146 0086 
ffe7 0079 fef5 fff0 0249 fecd fffd 00c4 ff11 0030 
ff06 0231 00ad fe2d ffb5 fd7d 004f ff0c ff29 ff28 
00a8 00fc 0096 ffa6 0254 fde3 0060 ff78 01b6 0004 
0135 00ca 00bc ff35 ffd4 ffa0 0027 007e 0025 ff19 
